/*********************************************************************
*            (c) 1998 - 2024 SEGGER Microcontroller GmbH             *
*        Solutions for real time microcontroller applications        *
*                           www.segger.com                           *
**********************************************************************
*                                                                    *
* C-file generated by                                                *
*                                                                    *
*        Bitmap Converter for emWin (Demo version) V6.42.            *
*        Compiled Jun  7 2024, 12:26:27                              *
*                                                                    *
*        (c) 1998 - 2024 SEGGER Microcontroller GmbH                 *
*                                                                    *
*        May not be used in a product                                *
*                                                                    *
**********************************************************************
*                                                                    *
* Source file: chinese_wt_1                                          *
* Dimensions:  73 * 13                                               *
* NumColors:   65536 colors + 8 bit alpha channel                    *
* NumBytes:    2867                                                  *
*                                                                    *
**********************************************************************
*/

#include <stdlib.h>

#include "GUI.h"

#ifndef GUI_CONST_STORAGE
  #define GUI_CONST_STORAGE const
#endif

GUI_CONST_STORAGE unsigned char chinese_wt_1[] = {
  0xFF,0x00,0x00, 0xFF,0x00,0x00, 0xFF,0x00,0x00, 0xFF,0xEE,0x31, 0xFF,0xFE,0xED, 0xFF,0xFF,0xFF, 0xFF,0xD7,0x3D, 0xFF,0xD7,0x5E, 0xFF,0x00,0x00, 0xFF,0x00,0x00, 0xFF,0x00,0x00, 0xFF,0x00,0x00, 0xFF,0x00,0x00, 0xFF,0xA4,0x8D, 0xFE,0xB5,0x72, 
        0xF9,0xCE,0x58, 0xFF,0xCE,0xBD, 0xFF,0xBE,0x1A, 0xFF,0x00,0x00, 0xFF,0x00,0x00, 0xFF,0x00,0x00, 0xFF,0x00,0x00, 0xFF,0x00,0x00, 0xFF,0x00,0x00, 0xFF,0x00,0x00, 0xFF,0xDE,0xDA, 0xFF,0xC6,0x16, 0xFF,0xCE,0x99, 0xFF,0xDE,0xDA, 0xFF,0xFF,0xFF, 
        0xFF,0xFF,0xFF, 0xFF,0xCE,0x58, 0xFF,0xDE,0xDA, 0xFF,0x7D,0xBA, 0xFF,0xAD,0xD7, 0xFF,0x00,0x00, 0xFF,0x00,0x00, 0xFF,0x5A,0xCA, 0xFF,0x62,0xEB, 0xFF,0x5A,0xCA, 0xFF,0x52,0xAA, 0xFF,0x4A,0x69, 0xFF,0xF7,0xFF, 0xFF,0xDE,0xFA, 0xFF,0xDF,0x3C, 
        0xFF,0xF7,0xBE, 0xFF,0x4A,0xEE, 0xFF,0x00,0x00, 0xFF,0x00,0x00, 0xFF,0x00,0x00, 0xFF,0xE7,0x1A, 0xFF,0xE6,0xD9, 0xFF,0xEF,0x9D, 0xFF,0xBE,0xFD, 0xFF,0xBE,0xBC, 0xFF,0x00,0x00, 0xFF,0xB5,0xB6, 0xFF,0xAD,0x95, 0xFF,0xAD,0xB6, 0xFF,0xBE,0x17, 
        0xFF,0x00,0x00, 0xFF,0x00,0x00, 0xFF,0x9C,0xD2, 0xFF,0x94,0xB2, 0xFF,0xFF,0xFF, 0xFF,0xDE,0xB9, 0xFF,0xDE,0xFB, 0xFF,0xFF,0xFF, 0xFF,0xFF,0xFF, 0xFF,0xFF,0xFF, 0xFF,0xBE,0x9B, 0xFF,0xBE,0x9B, 0xFF,0x00,0x00,
  0xFF,0x00,0x00, 0xFF,0x00,0x00, 0xFF,0x00,0x00, 0xFF,0xD6,0x57, 0xF4,0xDE,0x97, 0x9D,0xE7,0x5C, 0xE6,0xD7,0x1D, 0xFF,0xD6,0xFC, 0xFF,0xDF,0x1B, 0xFF,0xCE,0xFC, 0xFF,0xC6,0xBB, 0xFF,0x00,0x00, 0xFF,0xAC,0x8F, 0xFF,0xDE,0x98, 0xEA,0xE6,0xB8, 
        0x72,0xEF,0x7D, 0xE1,0xD7,0x1D, 0xFF,0xD7,0x1C, 0xFF,0xBD,0xD6, 0xFF,0xDE,0xDB, 0xFF,0xEF,0x5C, 0xFF,0xEF,0x7D, 0xFF,0xE7,0x5D, 0xFF,0xFF,0xFF, 0xFF,0x74,0x12, 0xFF,0xE7,0x3B, 0xFB,0xCE,0x37, 0xFE,0x73,0xCF, 0xFF,0xDF,0x5D, 0xFF,0xF7,0xFF, 
        0xFF,0xFF,0xFF, 0xFD,0xC5,0xB5, 0xF5,0xDE,0xDA, 0xFF,0xF7,0xDE, 0xFF,0xBE,0x7A, 0xFF,0xC6,0x9A, 0xFF,0x00,0x00, 0xFF,0xB4,0xCF, 0xFF,0x60,0x00, 0xFF,0xFF,0xDE, 0xFF,0xE7,0x9E, 0xFF,0xFF,0xFF, 0xFF,0xF7,0xDF, 0xE8,0xDE,0xDA, 0xED,0xDF,0x3C, 
        0xFF,0xF7,0xDE, 0xFF,0x42,0xAD, 0xFF,0x00,0x00, 0xFF,0x00,0x00, 0xFF,0x00,0x00, 0xFF,0xDE,0xD9, 0xE5,0xDE,0x98, 0xB8,0xE7,0x5C, 0xFB,0xB6,0xFE, 0xFF,0xDF,0x1B, 0xFF,0xDF,0x1B, 0xFF,0xE7,0x5C, 0xFF,0xFF,0xFE, 0xFF,0xFF,0xFF, 0xFF,0xD7,0x3D, 
        0xFF,0xD6,0xFC, 0xFF,0xD6,0x57, 0xFF,0xE7,0x3C, 0xFF,0xF7,0xBD, 0xFF,0xFF,0xFF, 0xFC,0xDE,0x78, 0xF7,0xDF,0x1C, 0xFF,0xEF,0x5C, 0xD4,0xE7,0x1A, 0x99,0xE7,0x7D, 0xFA,0xB6,0x7B, 0xFF,0xBE,0x7B, 0xFF,0x00,0x00,
  0xFF,0x00,0x00, 0xFF,0x52,0x49, 0xFF,0xFF,0xFF, 0xFF,0xDE,0x99, 0xF9,0xDD,0xB1, 0x54,0xEF,0x7C, 0xCC,0xCE,0xFC, 0xFF,0xEF,0xFF, 0xDA,0xDE,0xFB, 0xF8,0xCE,0xFC, 0xFF,0xCE,0xDC, 0xFF,0x7B,0x0A, 0xFF,0xFF,0xFF, 0xFF,0xEF,0x9D, 0xB1,0xE7,0x1B, 
        0x7A,0xE7,0x5D, 0xF8,0xAE,0x3A, 0xFF,0xDF,0x5E, 0xFD,0xD6,0xBA, 0xF6,0xE7,0x3C, 0xE4,0xEF,0x7D, 0xCC,0xEF,0x7D, 0xE9,0xE7,0x3D, 0xFF,0xFF,0xFF, 0xFF,0xB5,0x74, 0xFF,0xEF,0x3B, 0xCE,0xE6,0xFA, 0x8A,0xEF,0x7D, 0xF8,0xBE,0xDD, 0xFF,0xF7,0xFF, 
        0xB2,0xE7,0x3B, 0xCD,0xDF,0x3C, 0x95,0xEF,0x5C, 0xB3,0xE7,0x9D, 0xFE,0x7C,0xF6, 0xFF,0xBE,0x9A, 0xFF,0x00,0x00, 0xFF,0xA4,0x4D, 0xFE,0x9B,0x04, 0xB1,0xE7,0x3C, 0xD5,0xDF,0x5D, 0xFF,0xF7,0xDE, 0xFF,0xFF,0xFF, 0x88,0xEF,0x5B, 0x8F,0xE7,0x7D, 
        0xFF,0xFF,0xFF, 0xFF,0xB5,0xD7, 0xFF,0xC6,0x38, 0xFF,0x94,0x2F, 0xFF,0xFF,0xFF, 0xFF,0xDE,0xD9, 0xD5,0xDE,0x97, 0x4A,0xEF,0x7D, 0xDE,0xD6,0xFC, 0xD1,0xDE,0xFA, 0xE0,0xDF,0x1B, 0xD9,0xE7,0x5C, 0xA9,0xEF,0x7D, 0x91,0xEF,0x9E, 0xF1,0xCE,0xFD, 
        0xFF,0xD6,0xDB, 0xFC,0xD6,0x57, 0xDE,0xE7,0x3C, 0xB9,0xEF,0x7C, 0x84,0xEF,0xBE, 0xCD,0xDF,0x1B, 0x7F,0xEF,0x7D, 0xE1,0xD7,0x3C, 0x8E,0xE7,0x3B, 0x9C,0xE7,0x5D, 0xFE,0x01,0x6F, 0xFF,0xAE,0x1A, 0xFF,0x00,0x00,
  0xFF,0x00,0x00, 0xFF,0x52,0x49, 0xFF,0xFF,0xFF, 0xED,0xDE,0xDA, 0xC6,0xEF,0x5C, 0x44,0xEF,0x7D, 0x74,0xEF,0x9E, 0x9F,0xE7,0x5C, 0x46,0xEF,0x7D, 0xCF,0xD7,0x3D, 0xFF,0xDF,0x3D, 0xFF,0x59,0xC5, 0xFF,0xFF,0xFF, 0xC5,0xE7,0x1B, 0x6F,0xE7,0x5C, 
        0x93,0xE7,0x5C, 0x8B,0xEF,0x9E, 0xC5,0xDF,0x1B, 0x8E,0xEF,0x7D, 0x5B,0xF7,0x9D, 0x6A,0xEF,0x9E, 0x85,0xEF,0x9D, 0xC3,0xE7,0x5D, 0xFF,0xFF,0xFF, 0xFD,0xD6,0x98, 0xF6,0xE7,0x5C, 0xD5,0xEF,0x3B, 0x47,0xEF,0x9D, 0xA0,0xE7,0x7D, 0xD4,0xE7,0x1B, 
        0x6B,0xE7,0x5C, 0xDC,0xDF,0x3D, 0xD7,0xEF,0x5B, 0x4E,0xEF,0x9D, 0xD7,0xD7,0x1D, 0xFF,0xD7,0x3D, 0xFF,0xD6,0xDA, 0xFF,0xC5,0xD4, 0xF8,0xCD,0x91, 0x52,0xEF,0x7C, 0xB0,0xDF,0x5D, 0xFF,0xE7,0x7D, 0xF7,0xD5,0xF3, 0x60,0xEF,0x5C, 0xC3,0xDF,0x3D, 
        0xFF,0xFF,0xFF, 0xFF,0xFF,0xFF, 0xFF,0xB6,0x3A, 0xFF,0xA6,0x1B, 0xFF,0xFF,0xFF, 0xDB,0xDE,0xFB, 0x8C,0xEF,0x7C, 0x2F,0xF7,0xBE, 0x68,0xEF,0x7D, 0x58,0xE7,0x7D, 0x7F,0xE7,0x7C, 0x77,0xE7,0x7D, 0x8D,0xEF,0x7C, 0x53,0xEF,0x9E, 0xEF,0xCE,0xFD, 
        0xFF,0xCE,0x9A, 0xF6,0xD6,0x15, 0x6C,0xE7,0x5C, 0x87,0xE7,0x5C, 0x56,0xEF,0x7D, 0xD6,0xDF,0x1C, 0xAF,0xEF,0x5C, 0xAE,0xE7,0x3C, 0x83,0xE7,0x5C, 0x9C,0xEF,0x7D, 0xE5,0xD7,0x1C, 0xFF,0xDF,0x5D, 0xFF,0x00,0x00,
  0xFF,0xD6,0x78, 0xFF,0xDE,0xFA, 0xFF,0xEF,0x7D, 0xDF,0xDE,0xDA, 0xA4,0xEF,0x5C, 0x47,0xEF,0x5C, 0xA2,0xE7,0x5D, 0x6D,0xEF,0x7C, 0x89,0xE7,0x7D, 0xF7,0xBE,0x5A, 0xFF,0xFF,0xFF, 0xFF,0xCE,0xDB, 0xFF,0xFF,0xFF, 0x94,0xE7,0x3B, 0x81,0xE7,0x7D, 
        0xB0,0xE7,0x1B, 0x53,0xE7,0x7D, 0xE8,0xD6,0xFC, 0xE9,0xE7,0x1B, 0x66,0xEF,0x7C, 0x90,0xE7,0x7D, 0xE8,0xDF,0x1C, 0xF7,0xCE,0xDB, 0xFF,0xDE,0xFA, 0xE8,0xDE,0xB8, 0x86,0xEF,0x7D, 0x80,0xEF,0x9E, 0x91,0xEF,0x9D, 0xAF,0xEF,0x7D, 0xA3,0xDF,0x1B, 
        0xA8,0xE7,0x5C, 0xBF,0xEF,0x5D, 0x95,0xEF,0x9D, 0x74,0xEF,0x7D, 0xE5,0xCE,0xFC, 0xFF,0xCE,0xFC, 0xFF,0xDF,0x3C, 0xFF,0xFF,0xD9, 0xC6,0xDE,0xFA, 0x71,0xE7,0x5C, 0xD6,0xDF,0x3C, 0xEE,0xE7,0x5D, 0xC9,0xE7,0x1A, 0x50,0xE7,0x7D, 0xA9,0xE7,0x5C, 
        0x7A,0xEF,0x7D, 0xA0,0xE7,0x7D, 0xFD,0x54,0x34, 0xFF,0xAD,0xD8, 0xFF,0xFF,0xFF, 0xE8,0xDE,0xDA, 0xA8,0xEF,0x5C, 0x54,0xEF,0x9D, 0x68,0xEF,0x7D, 0x75,0xE7,0x7D, 0x90,0xE7,0x7C, 0x9F,0xD7,0x3C, 0xA2,0xDE,0xFA, 0xD0,0xD7,0x1C, 0xFF,0xDF,0x5D, 
        0xFF,0x30,0x00, 0xFC,0xAB,0xC9, 0x81,0xD6,0xFA, 0xA3,0xD6,0xFB, 0xB7,0xD6,0xFB, 0xD3,0xE7,0x1B, 0x88,0xEF,0x7D, 0x3C,0xEF,0x9D, 0x9F,0xEF,0x7D, 0xBE,0xE7,0x5D, 0xEF,0xD6,0xFB, 0xFF,0xDF,0x3C, 0xFF,0x00,0x00,
  0xFC,0xD6,0x78, 0xED,0xE7,0x1B, 0xE6,0xE7,0x5C, 0xDC,0xEF,0x9D, 0xCB,0xEF,0x5C, 0x5D,0xEF,0x5C, 0x72,0xEF,0x7D, 0x40,0xEF,0x9D, 0x80,0xEF,0x7D, 0x69,0xF7,0xBE, 0x91,0xEF,0x7D, 0xF7,0xBE,0x5A, 0xFF,0xEF,0x9D, 0xA4,0xE7,0x1A, 0x6F,0xE7,0x7D, 
        0x82,0xEF,0x7D, 0x9B,0xDF,0x5C, 0xD0,0xE7,0x3B, 0x97,0xEF,0x7D, 0x52,0xEF,0x9D, 0x6D,0xEF,0x7D, 0x60,0xEF,0x7D, 0x8D,0xE7,0x7D, 0xFF,0xFF,0xFF, 0xFD,0xDE,0xB8, 0xEC,0xDF,0x1B, 0xBE,0xEF,0x5C, 0x98,0xEF,0x7D, 0xD7,0xDF,0x3C, 0xAF,0xE7,0x3B, 
        0x80,0xE7,0x7D, 0xD4,0xE7,0x5D, 0x86,0xEF,0x7C, 0x56,0xEF,0x9E, 0xF8,0x9E,0x1A, 0xFF,0xB6,0x7B, 0xFF,0xEF,0x5B, 0xCA,0xE7,0x1A, 0x58,0xEF,0x7D, 0x9C,0xE7,0x5C, 0x8C,0xEF,0x5C, 0x57,0xEF,0x9E, 0x90,0xDF,0x3B, 0xBB,0xE7,0x7D, 0xE7,0xE7,0x5C, 
        0x91,0xF7,0x7C, 0x55,0xE7,0x9D, 0xFC,0x4C,0x56, 0xF9,0xB5,0x74, 0xA8,0xEF,0x5C, 0x7E,0xF7,0x9E, 0x81,0xEF,0x9D, 0x3D,0xEF,0x9D, 0x6E,0xEF,0x9E, 0xBF,0xEF,0x7D, 0x8C,0xE7,0x3B, 0xA3,0xCF,0x1C, 0xA6,0xDF,0x1B, 0xB0,0xDF,0x5C, 0xFF,0xFF,0xFF, 
        0xFF,0x7B,0xCE, 0xFC,0x9B,0x68, 0x83,0xD6,0xDA, 0xC4,0xD6,0xDA, 0x84,0xE7,0x3C, 0xDD,0xD6,0xFB, 0x7B,0xEF,0x5C, 0x8A,0xE7,0x7D, 0xEE,0xD6,0x79, 0x74,0xEF,0x7C, 0xBE,0xDF,0x5D, 0xFF,0xEF,0xBE, 0xFF,0x00,0x00,
  0xF2,0xCE,0x37, 0x95,0xEF,0x5C, 0x7B,0xEF,0x9E, 0x9B,0xEF,0x9D, 0xB0,0xEF,0x7D, 0x66,0xEF,0x7D, 0x5A,0xEF,0x9D, 0xC8,0xEF,0x7D, 0xCD,0xEF,0x7D, 0xC8,0xEF,0x9D, 0xD0,0xEF,0x7D, 0xFA,0xC6,0x7A, 0xFF,0xEF,0x9D, 0x9D,0xDE,0xF9, 0x7E,0xE7,0x5C, 
        0xB4,0xEF,0x5C, 0xB3,0xE7,0x7D, 0xAC,0xE7,0x3B, 0x83,0xE7,0x5D, 0x76,0xE7,0x5C, 0xB2,0xD7,0x3D, 0x91,0xF7,0x7C, 0x7C,0xDF,0x7D, 0xFF,0xFF,0xFF, 0xFF,0xC5,0xF6, 0xFD,0xB5,0x52, 0xB9,0xEF,0x5C, 0x90,0xEF,0x7D, 0xD6,0xDF,0x5D, 0xCF,0xDE,0xF9, 
        0x72,0xE7,0x5C, 0x9F,0xEF,0x9D, 0x5B,0xEF,0x9D, 0xB4,0xDF,0x3C, 0xFF,0xEF,0x9E, 0xFF,0xCF,0x3D, 0xFF,0xE6,0xFA, 0xC7,0xE6,0xF9, 0x67,0xE7,0x5C, 0xEA,0xDE,0xFC, 0xB6,0xEF,0x5C, 0x4A,0xEF,0x9D, 0xC0,0xD6,0xFB, 0xE8,0xE7,0x5D, 0xFF,0xFF,0xDE, 
        0xA4,0xEF,0x7C, 0x7B,0xE7,0x7D, 0xFF,0xFF,0xFF, 0xFE,0xB5,0x33, 0xDD,0xEF,0x5C, 0xDA,0xEF,0x7D, 0xB2,0xEF,0x7C, 0x72,0xE7,0x5C, 0xCF,0xDF,0x3C, 0xFD,0x7C,0xD6, 0x98,0xDF,0x1A, 0xA6,0xD7,0x1C, 0xEC,0xDE,0x56, 0x5C,0xE7,0x5C, 0xDD,0xD7,0x5D, 
        0xFF,0xCE,0xFC, 0xFB,0xA4,0x0B, 0x81,0xDE,0xDA, 0xB2,0xDF,0x1B, 0x56,0xEF,0x7D, 0xAA,0xD6,0xFB, 0x82,0xE7,0x5C, 0x5F,0xEF,0x9D, 0x85,0xE7,0x5C, 0xB2,0xE7,0x7D, 0xEF,0xDF,0x3D, 0xFF,0xEF,0x9E, 0xFF,0x00,0x00,
  0xFF,0xFF,0xFF, 0xF9,0xDE,0xFB, 0xFA,0xDF,0x3C, 0xFC,0xB4,0xD1, 0x9C,0xEF,0x7C, 0x47,0xEF,0x9D, 0xD3,0xDF,0x1C, 0xDB,0xEF,0x7D, 0xE8,0xDF,0x3C, 0xFF,0xF7,0x7D, 0xFF,0xE7,0x7D, 0xFF,0xC6,0x7A, 0xFF,0xF7,0xDE, 0x96,0xE7,0x3B, 0x79,0xE7,0x5D, 
        0xA4,0xE7,0x3B, 0x46,0xEF,0x7D, 0x86,0xE7,0x3C, 0x99,0xDF,0x3C, 0x81,0xE7,0x5B, 0xA9,0xCE,0xFC, 0x7D,0xF7,0x9D, 0x87,0xDF,0x3D, 0xFF,0xFF,0xFF, 0xFF,0xDE,0xFA, 0xF8,0xCE,0x78, 0xC8,0xE7,0x3B, 0xA5,0xEF,0x7D, 0xC3,0xE7,0x5D, 0xF6,0xBD,0xB4, 
        0x66,0xE7,0x5C, 0x55,0xEF,0x7D, 0x67,0xE7,0x7D, 0xF9,0x95,0x58, 0xFF,0xC6,0x38, 0xFF,0xB5,0xF8, 0xFF,0xDE,0xD8, 0xD8,0xE6,0xD9, 0x4D,0xE7,0x5C, 0x8C,0xEF,0x7D, 0x7B,0xEF,0x7D, 0x5E,0xEF,0x9E, 0xC0,0xE7,0x1A, 0x55,0xEF,0x9D, 0xE9,0xCF,0x1D, 
        0x98,0xE7,0x3B, 0x87,0xDF,0x3D, 0xFF,0xFF,0xFF, 0xFF,0xD6,0x78, 0xFF,0xFF,0xFF, 0xBA,0xE7,0x3B, 0x44,0xEF,0x9D, 0x99,0xE7,0x5D, 0x75,0xEF,0x7C, 0x9F,0xDF,0x5D, 0x9F,0xE7,0x3B, 0xA1,0xD7,0x1C, 0xAB,0xEF,0x3B, 0x2F,0xEF,0x9D, 0xC3,0xDF,0x7E, 
        0xFF,0xDF,0x5D, 0xFA,0xCD,0x92, 0x80,0xE7,0x1B, 0xE3,0xDF,0x3D, 0xE7,0xDE,0xDA, 0xBA,0xDF,0x1B, 0x8F,0xE7,0x5C, 0x51,0xEF,0x9D, 0x3B,0xE7,0x7D, 0xBB,0xDF,0x5D, 0xFF,0xFF,0xFF, 0xFF,0xE7,0x7D, 0xFF,0xC6,0x7A,
  0xFF,0xAC,0xF2, 0xFF,0xEF,0x7D, 0xE5,0xDE,0xFA, 0x8B,0xEF,0x5C, 0x6D,0xE7,0x5C, 0x32,0xEF,0x9D, 0x78,0xEF,0x9D, 0x7E,0xEF,0x9E, 0xBE,0xDF,0x5D, 0xF3,0xAD,0x74, 0xFE,0xA5,0x34, 0xFF,0x00,0x00, 0xFF,0xFF,0xFF, 0x7E,0xE7,0x3B, 0x8C,0xE7,0x7D, 
        0x9F,0xEF,0x5C, 0x71,0xE7,0x5D, 0xC1,0xDE,0xFA, 0xCE,0xD6,0xFB, 0x81,0xE7,0x5B, 0x9D,0xD6,0xFB, 0x5C,0xEF,0x9D, 0xB2,0xDF,0x5D, 0xFF,0xEF,0xBE, 0xFF,0xE7,0x1A, 0xD8,0xDE,0xD9, 0x7B,0xE7,0x5C, 0x8F,0xEF,0x5C, 0x66,0xE7,0x7D, 0xE7,0xCE,0x58, 
        0x6F,0xE7,0x5C, 0x98,0xE7,0x3B, 0x94,0xDF,0x3C, 0xFF,0xF7,0x9C, 0xF8,0xAD,0x53, 0xEA,0xAD,0x96, 0xFF,0xDE,0xD8, 0xDD,0xEF,0x5A, 0x6B,0xE7,0x5C, 0xE2,0xD6,0xFC, 0xB8,0xEF,0x5B, 0x66,0xE7,0x7D, 0xF8,0x9D,0x56, 0xC9,0xE7,0x3C, 0xF6,0xC6,0xBB, 
        0x85,0xEF,0x3B, 0x95,0xDF,0x5D, 0xFF,0xF7,0xDE, 0xFA,0xCE,0x57, 0xB8,0xE7,0x1B, 0xA0,0xE7,0x5C, 0x6E,0xE7,0x5C, 0x9C,0xEF,0x7D, 0x65,0xE7,0x5C, 0x9A,0xDF,0x3C, 0xA2,0xE7,0x5B, 0xAE,0xDF,0x5D, 0xE3,0xEF,0x3B, 0x87,0xEF,0x9D, 0xE7,0xCF,0x1D, 
        0xFF,0xC6,0x9A, 0xF5,0xD5,0xF4, 0x73,0xDF,0x1B, 0xE9,0xC6,0xDC, 0xF7,0xB5,0x53, 0xD3,0xDE,0xDA, 0x98,0xEF,0x7C, 0x5A,0xEF,0x9D, 0x6C,0xE7,0x7D, 0x77,0xEF,0x9D, 0x7A,0xEF,0x9E, 0xD4,0xE7,0x7D, 0xFB,0xC6,0x9A,
  0xFF,0xFF,0xFF, 0xD7,0xDE,0xDA, 0x95,0xE7,0x5C, 0xC2,0xE7,0x7D, 0xD7,0xDE,0x98, 0x6B,0xDF,0x3C, 0xF1,0xBE,0x9B, 0xFF,0xFF,0xFF, 0xF9,0xBD,0x10, 0x8F,0xDF,0x1B, 0xEC,0xCE,0xFC, 0xFF,0xC6,0xBC, 0xFF,0xFF,0xFF, 0xB2,0xE7,0x1B, 0x99,0xEF,0x7D, 
        0xBB,0xEF,0x9D, 0xD8,0xE7,0x5D, 0xFF,0x00,0x00, 0xFF,0xFF,0xFF, 0x7F,0xE7,0x5B, 0xB9,0xD7,0x1C, 0xF0,0xDE,0xFB, 0xF9,0xC6,0xDB, 0xFF,0xC6,0xDB, 0xFF,0xCE,0x14, 0xF1,0xDE,0x76, 0x71,0xE7,0x5C, 0x84,0xEF,0x5C, 0xA2,0xDF,0x3C, 0x9D,0xE7,0x3B, 
        0x9F,0xE7,0x5D, 0xBC,0xDE,0xF9, 0x95,0xDF,0x3C, 0xFF,0xFF,0xFE, 0xD6,0xDE,0xB8, 0x90,0xDF,0x1B, 0xFF,0xFF,0xF3, 0xDF,0xE6,0xF9, 0x5B,0xEF,0x7C, 0x91,0xEF,0x7D, 0x4A,0xF7,0x9D, 0x78,0xE7,0x7D, 0xFF,0xFF,0xFF, 0xF6,0xCE,0x37, 0xF1,0xD6,0x78, 
        0x5F,0xEF,0x7C, 0xA9,0xDF,0x5D, 0xFF,0xE7,0x9E, 0xFA,0xD6,0xB9, 0xEB,0xE7,0x3C, 0xF4,0xD6,0x35, 0x70,0xE7,0x5C, 0xB3,0xEF,0x7D, 0x80,0xE7,0x3B, 0x9C,0xDF,0x3C, 0xA3,0xEF,0x5B, 0xB0,0xDF,0x5D, 0xFF,0xEF,0x9D, 0xFF,0xFF,0xFF, 0xFF,0xE7,0xBF, 
        0xFF,0xD6,0x15, 0xE8,0xDE,0x97, 0x64,0xE7,0x5C, 0xEF,0xBE,0xBC, 0xED,0xD6,0x98, 0xA1,0xE7,0x3B, 0xAA,0xE7,0x7D, 0xA7,0xEF,0x7C, 0x75,0xE7,0x7D, 0xE7,0xE7,0x1B, 0x71,0xF7,0xBE, 0x8E,0xEF,0x9E, 0xEF,0xCE,0xBB,
  0xFF,0x62,0x47, 0xF1,0xDE,0xFB, 0xF7,0xE7,0x3D, 0xFF,0xE7,0x3B, 0xE9,0xDE,0xB8, 0x63,0xEF,0x7C, 0x8D,0xEF,0x9E, 0x96,0xF7,0x9E, 0x70,0xF7,0x9E, 0x3A,0xEF,0x9E, 0xDB,0xD7,0x1D, 0xFF,0xD7,0x1D, 0xFF,0xAD,0x53, 0xFF,0x00,0xE9, 0xFF,0xFF,0xFF, 
        0xFF,0xF7,0xBE, 0xFF,0xE7,0x7D, 0xFF,0x95,0x35, 0xFF,0xF7,0xFF, 0x83,0xE7,0x5B, 0xC3,0xDF,0x3C, 0xFF,0xDF,0x3D, 0xFF,0xCE,0xDB, 0xFF,0xCE,0xDB, 0xFF,0x9B,0xED, 0xFE,0xB4,0x2C, 0xCD,0xE7,0x1B, 0xD3,0xEF,0x7D, 0xC7,0xDE,0xDA, 0xA0,0xE7,0x3C, 
        0xF7,0xC6,0xDD, 0xE5,0xE6,0xD9, 0x69,0xEF,0x7D, 0x79,0xF7,0x9E, 0x53,0xF7,0x9D, 0x79,0xE7,0x7D, 0xFD,0x3C,0xB8, 0xF8,0xD6,0x77, 0xE1,0xDE,0xFB, 0xFD,0xB5,0xF7, 0xC1,0xE7,0x3B, 0xD6,0xDF,0x3D, 0xFF,0xE7,0x3C, 0xDE,0xD6,0x98, 0x5C,0xEF,0x7D, 
        0x32,0xEF,0xBE, 0xDB,0xCF,0x1D, 0xFF,0xD7,0x1D, 0xFF,0xDE,0xB9, 0xFF,0xDE,0xB9, 0xF7,0xCD,0xD4, 0x8C,0xEF,0x5C, 0x98,0xEF,0x7D, 0x87,0xEF,0x7D, 0xC2,0xDF,0x3C, 0xA1,0xDF,0x1A, 0xB9,0xD7,0x1C, 0xFF,0xDF,0x5D, 0xFF,0xB5,0xB6, 0xFF,0xAD,0xD7, 
        0xFF,0xDE,0x76, 0xE8,0xDE,0xB7, 0x7F,0xDF,0x3C, 0xF6,0xB6,0x9C, 0xEA,0xD6,0x99, 0xE6,0xDF,0x1B, 0xD4,0xDE,0xFA, 0x58,0xF7,0xBD, 0x91,0xE7,0x7D, 0xFF,0xFF,0xFF, 0xFF,0xFF,0xFF, 0xFF,0x5B,0x0B, 0xFF,0xDF,0x1C,
  0xFF,0x94,0x0E, 0xFF,0xDE,0xFB, 0xFF,0xDF,0x1C, 0xFF,0xB5,0x11, 0xFF,0xFF,0xFF, 0xD5,0xEF,0x7C, 0x99,0xF7,0x9E, 0x8B,0xEF,0x9D, 0x9C,0xF7,0xBE, 0xD5,0xE7,0x7D, 0xFE,0xB6,0x19, 0xFF,0xCE,0xBB, 0xFF,0xD6,0xBA, 0xFF,0xD6,0x9A, 0xFF,0xCE,0x9A, 
        0xFF,0xCE,0xBA, 0xFF,0x00,0x00, 0xFF,0x00,0x00, 0xFF,0xF7,0xFF, 0xA3,0xD6,0xD9, 0xDD,0xCE,0xDB, 0xFF,0xCE,0xDC, 0xFF,0x00,0x00, 0xFF,0x00,0x00, 0xFF,0xB4,0xB0, 0xFF,0xBC,0xAE, 0xFF,0xE7,0x3C, 0xFF,0xEF,0x9D, 0xF7,0xCE,0x78, 0xFD,0xC6,0x38, 
        0xFF,0xD7,0x1C, 0xFF,0xFF,0xFF, 0xE4,0xEF,0x7C, 0xBE,0xF7,0xBE, 0xC9,0xEF,0x9E, 0xF4,0xD6,0xFC, 0xFF,0xE7,0x9E, 0xFF,0xDE,0x98, 0xFF,0xDE,0xFB, 0xFF,0x84,0x71, 0xFF,0xF7,0xBD, 0xFF,0xEF,0x9E, 0xFF,0x00,0x00, 0xFF,0xFF,0xFF, 0xB6,0xEF,0x5C, 
        0xB3,0xE7,0x5D, 0xFF,0x00,0x00, 0xFF,0x9D,0x77, 0xFF,0x00,0x00, 0xFF,0xD6,0x34, 0xFF,0xFF,0xF7, 0xFD,0xBD,0xD7, 0xFF,0x00,0x80, 0xFF,0x31,0xCA, 0xFF,0xEF,0xFF, 0xC0,0xCE,0x98, 0xDC,0xCE,0xBA, 0xFF,0xCE,0xFB, 0xFF,0x00,0x00, 0xFF,0x00,0x00, 
        0xFF,0xBD,0x93, 0xFE,0xD6,0x77, 0xF1,0xD6,0xDA, 0xFE,0xBE,0x9B, 0xFF,0xD6,0x99, 0xFF,0xEF,0x5C, 0xD4,0xE7,0x1A, 0x6B,0xEF,0x9D, 0xDF,0xD7,0x1D, 0xFF,0xD7,0x3D, 0xFF,0xCE,0x58, 0xFF,0xC6,0x59, 0xFF,0xD6,0xDB,
  0xFF,0x00,0x00, 0xFF,0x00,0x00, 0xFF,0x00,0x00, 0xFF,0xC5,0xF5, 0xFF,0x49,0x00, 0xFF,0xEF,0x7D, 0xFF,0xFF,0xFF, 0xFF,0xFF,0xFF, 0xFF,0xFF,0xFF, 0xFF,0xE7,0x7D, 0xFF,0xB5,0xF9, 0xFF,0xC6,0x9B, 0xFF,0x00,0x00, 0xFF,0x00,0x00, 0xFF,0x00,0x00, 
        0xFF,0x00,0x00, 0xFF,0x00,0x00, 0xFF,0x00,0x00, 0xFF,0xEF,0xFF, 0xF4,0xBD,0xF6, 0xFC,0xB5,0xF8, 0xFF,0xB5,0xF8, 0xFF,0x00,0x00, 0xFF,0x00,0x00, 0xFF,0x00,0x00, 0xFF,0x00,0x00, 0xFF,0xAD,0x13, 0xFF,0xFF,0xFF, 0xFF,0xCE,0x58, 0xFF,0xD6,0x9A, 
        0xFF,0xD6,0xBA, 0xFF,0xFF,0xFF, 0xFF,0xEF,0x5C, 0xFF,0xF7,0xBE, 0xFF,0xEF,0x9E, 0xFF,0xD6,0xFC, 0xFF,0xE7,0x7D, 0xFF,0x9D,0x56, 0xFF,0x00,0x00, 0xFF,0x9D,0x13, 0xFF,0x9C,0xF2, 0xFF,0x94,0xF2, 0xFF,0xC5,0x94, 0xFF,0x8B,0xCB, 0xFF,0xFF,0xFE, 
        0xFF,0xF7,0xDF, 0xFF,0x9D,0x98, 0xFF,0xB6,0x1A, 0xFF,0x00,0x00, 0xFF,0x94,0x0F, 0xFF,0xBD,0x75, 0xFF,0xC6,0x18, 0xFF,0xBE,0x18, 0xFF,0xCE,0x59, 0xFF,0xBD,0xF7, 0xFC,0xA5,0x54, 0xFE,0xA5,0x34, 0xFF,0xA5,0x55, 0xFF,0x00,0x00, 0xFF,0x00,0x00, 
        0xFF,0xC5,0xD4, 0xFF,0xD6,0x77, 0xFF,0xD6,0xDA, 0xFF,0xC6,0xBC, 0xFF,0xA5,0xB8, 0xFF,0xFF,0xFF, 0xFF,0xFF,0xFE, 0xFC,0xAD,0x55, 0xFF,0xFF,0xFF, 0xFF,0xFF,0xFF, 0xFF,0x00,0x00, 0xFF,0x00,0x00, 0xFF,0x00,0x00
};

/*************************** End of file ****************************/
